{
    "idx_voc": {
        "0": "<pad>",
        "1": "<eos>",
        "2": "<unk>",
        "3": "️",
        "4": "票",
        "5": "誉",
        "6": "T",
        "7": "教",
        "8": "簡",
        "9": "爆",
        "10": "쳤",
        "11": "ክ",
        "12": "ሪ",
        "13": "ั",
        "14": "있",
        "15": "‘",
        "16": ">",
        "17": "*",
        "18": "니",
        "19": "們",
        "20": "ç",
        "21": "생",
        "22": "発",
        "23": "作",
        "24": "저",
        "25": "&",
        "26": "っ",
        "27": "み",
        "28": "알",
        "29": "บ",
        "30": "m",
        "31": "我",
        "32": "内",
        "33": "ያ",
        "34": "量",
        "35": "k",
        "36": "如",
        "37": "ญ",
        "38": "[",
        "39": "最",
        "40": "ማ",
        "41": "수",
        "42": "ሊ",
        "43": "ब",
        "44": "ሉ",
        "45": "’",
        "46": ".",
        "47": "ከ",
        "48": "U",
        "49": "🗣",
        "50": "।",
        "51": "q",
        "52": "な",
        "53": "J",
        "54": "グ",
        "55": "容",
        "56": "ብ",
        "57": "ए",
        "58": "は",
        "59": "እ",
        "60": "X",
        "61": "方",
        "62": "H",
        "63": "ጂ",
        "64": "所",
        "65": "ง",
        "66": "持",
        "67": "且",
        "68": "–",
        "69": "ル",
        "70": "ज",
        "71": "股",
        "72": "9",
        "73": "f",
        "74": "행",
        "75": "А",
        "76": "는",
        "77": "だ",
        "78": "肉",
        "79": "、",
        "80": "も",
        "81": "श",
        "82": "を",
        "83": "警",
        "84": "_",
        "85": "💬",
        "86": "谤",
        "87": "あ",
        "88": "í",
        "89": "x",
        "90": "ブ",
        "91": "步",
        "92": "ለ",
        "93": "有",
        "94": "以",
        "95": "0",
        "96": "방",
        "97": "ጡ",
        "98": "\\",
        "99": "በ",
        "100": "훔",
        "101": "ጋ",
        "102": "性",
        "103": "]",
        "104": "生",
        "105": "झ",
        "106": "？",
        "107": "攻",
        "108": "물",
        "109": "お",
        "110": "経",
        "111": "る",
        "112": "Y",
        "113": "リ",
        "114": "K",
        "115": "“",
        "116": "進",
        "117": "使",
        "118": "󠁹",
        "119": "♀",
        "120": "ำ",
        "121": "€",
        "122": "󠁮",
        "123": "ธ",
        "124": "營",
        "125": "면",
        "126": "j",
        "127": "품",
        "128": "偷",
        "129": "ू",
        "130": "ス",
        "131": "ो",
        "132": "り",
        "133": "成",
        "134": "ዎ",
        "135": "ች",
        "136": "的",
        "137": "F",
        "138": "ላ",
        "139": "{",
        "140": "클",
        "141": "ク",
        "142": "カ",
        "143": "I",
        "144": "🧍",
        "145": "뷰",
        "146": "维",
        "147": "毒",
        "148": "󠁯",
        "149": "ጽ",
        "150": "시",
        "151": "न",
        "152": "法",
        "153": "운",
        "154": "n",
        "155": "다",
        "156": "y",
        "157": "和",
        "158": "了",
        "159": "고",
        "160": "導",
        "161": "@",
        "162": "व",
        "163": "ቀ",
        "164": "แ",
        "165": "ร",
        "166": "便",
        "167": "么",
        "168": "察",
        "169": "え",
        "170": "축",
        "171": "告",
        "172": "め",
        "173": "ፈ",
        "174": "。",
        "175": "'",
        "176": "7",
        "177": "佳",
        "178": "የ",
        "179": "औ",
        "180": "Z",
        "181": "ं",
        "182": "a",
        "183": "物",
        "184": "닉",
        "185": "ँ",
        "186": "?",
        "187": "，",
        "188": "6",
        "189": "आ",
        "190": "C",
        "191": "य",
        "192": "O",
        "193": "!",
        "194": "解",
        "195": "찰",
        "196": "ረ",
        "197": "2",
        "198": "学",
        "199": "ኝ",
        "200": "u",
        "201": "司",
        "202": "經",
        "203": "指",
        "204": "󠁶",
        "205": "ะ",
        "206": "누",
        "207": "신",
        "208": "(",
        "209": "o",
        "210": "지",
        "211": "थ",
        "212": "階",
        "213": "S",
        "214": "로",
        "215": "한",
        "216": "ሎ",
        "217": "ድ",
        "218": "の",
        "219": ";",
        "220": "%",
        "221": "계",
        "222": "क",
        "223": "ኔ",
        "224": "स",
        "225": "ウ",
        "226": "弾",
        "227": "R",
        "228": "核",
        "229": "ñ",
        "230": "ር",
        "231": "P",
        "232": "경",
        "233": "メ",
        "234": "→",
        "235": "ó",
        "236": "ዊ",
        "237": "법",
        "238": ":",
        "239": "l",
        "240": "ው",
        "241": "󠁥",
        "242": "त",
        "243": "ด",
        "244": "出",
        "245": "L",
        "246": "ል",
        "247": "に",
        "248": "대",
        "249": "V",
        "250": "ー",
        "251": "¼",
        "252": "ハ",
        "253": "b",
        "254": "你",
        "255": "1",
        "256": "단",
        "257": "诽",
        "258": "ጥ",
        "259": "्",
        "260": "段",
        "261": "う",
        "262": "=",
        "263": "e",
        "264": "M",
        "265": "¢",
        "266": "公",
        "267": "誰",
        "268": "ड",
        "269": "መ",
        "270": "|",
        "271": "g",
        "272": "็",
        "273": "し",
        "274": "ዮ",
        "275": "ア",
        "276": "ฉ",
        "277": "Σ",
        "278": "ॉ",
        "279": "d",
        "280": "化",
        "281": "护",
        "282": " ",
        "283": "給",
        "284": "す",
        "285": "ส",
        "286": "r",
        "287": "가",
        "288": "よ",
        "289": "一",
        "290": "け",
        "291": "으",
        "292": "れ",
        "293": "ሁ",
        "294": "が",
        "295": "藏",
        "296": "하",
        "297": "³",
        "298": "ፖ",
        "299": "제",
        "300": "ት",
        "301": "D",
        "302": "า",
        "303": "적",
        "304": "इ",
        "305": "별",
        "306": "비",
        "307": "単",
        "308": "试",
        "309": "盗",
        "310": "声",
        "311": "ま",
        "312": "¿",
        "313": "ባ",
        "314": "까",
        "315": "罪",
        "316": "#",
        "317": "セ",
        "318": "보",
        "319": "∀",
        "320": "प",
        "321": "á",
        "322": "く",
        "323": "​",
        "324": "द",
        "325": "़",
        "326": "8",
        "327": "้",
        "328": "W",
        "329": "󠀠",
        "330": "他",
        "331": "菌",
        "332": "를",
        "333": "て",
        "334": "用",
        "335": "ใ",
        "336": "擊",
        "337": "書",
        "338": "c",
        "339": "£",
        "340": "่",
        "341": "犯",
        "342": "󠁳",
        "343": "영",
        "344": ")",
        "345": "4",
        "346": "󠁩",
        "347": "報",
        "348": "ሙ",
        "349": "图",
        "350": "ต",
        "351": "什",
        "352": "大",
        "353": "ら",
        "354": "ロ",
        "355": "^",
        "356": "พ",
        "357": "려",
        "358": "3",
        "359": "5",
        "360": "공",
        "361": "嗎",
        "362": "ይ",
        "363": "h",
        "364": "म",
        "365": "ह",
        "366": "ደ",
        "367": "ल",
        "368": "ช",
        "369": "‍",
        "370": "E",
        "371": "र",
        "372": "i",
        "373": "량",
        "374": "家",
        "375": "ቃ",
        "376": "\"",
        "377": "ฆ",
        "378": "$",
        "379": "来",
        "380": "ዙ",
        "381": "ิ",
        "382": "×",
        "383": "営",
        "384": "ก",
        "385": "桿",
        "386": "습",
        "387": "เ",
        "388": "ン",
        "389": "󠁨",
        "390": "ሲ",
        "391": "美",
        "392": "存",
        "393": "向",
        "394": "N",
        "395": "을",
        "396": "티",
        "397": "さ",
        "398": "할",
        "399": "在",
        "400": "ም",
        "401": "`",
        "402": "除",
        "403": "è",
        "404": "診",
        "405": "}",
        "406": "።",
        "407": "ว",
        "408": "ニ",
        "409": "ッ",
        "410": "¾",
        "411": "撃",
        "412": "󠁴",
        "413": "-",
        "414": "/",
        "415": "น",
        "416": "是",
        "417": "አ",
        "418": "û",
        "419": "ุ",
        "420": "é",
        "421": "ि",
        "422": "อ",
        "423": "t",
        "424": "ዴ",
        "425": "🕋",
        "426": "ራ",
        "427": "+",
        "428": "v",
        "429": "w",
        "430": "격",
        "431": ",",
        "432": "ย",
        "433": "キ",
        "434": "舉",
        "435": "A",
        "436": "ा",
        "437": "े",
        "438": "ค",
        "439": "庫",
        "440": "✡",
        "441": "ห",
        "442": "학",
        "443": "何",
        "444": "い",
        "445": "󠁰",
        "446": "ม",
        "447": "た",
        "448": "ี",
        "449": "∧",
        "450": "届",
        "451": "能",
        "452": "人",
        "453": "訴",
        "454": "스",
        "455": "G",
        "456": "ण",
        "457": "私",
        "458": "ስ",
        "459": "ግ",
        "460": "💀",
        "461": "ข",
        "462": "󠁲",
        "463": "주",
        "464": "ป",
        "465": "ล",
        "466": "p",
        "467": "ภ",
        "468": "요",
        "469": "ु",
        "470": "ท",
        "471": "で",
        "472": "ና",
        "473": "か",
        "474": "ሰ",
        "475": "에",
        "476": "군",
        "477": "󠁷",
        "478": "ボ",
        "479": "ト",
        "480": "च",
        "481": "ኒ",
        "482": "优",
        "483": "ጃ",
        "484": "s",
        "485": "並",
        "486": "z",
        "487": "ी",
        "488": "Q",
        "489": "톡",
        "490": "리",
        "491": "行",
        "492": "<",
        "493": "ን",
        "494": "ሚ",
        "495": "隐",
        "496": "B",
        "497": "✝",
        "498": "󠁬",
        "499": "ट",
        "500": "침",
        "501": "ै",
        "502": "”",
        "503": "可",
        "504": "💥",
        "505": "️ ",
        "506": "誉和",
        "507": "Th",
        "508": "教え",
        "509": "簡単",
        "510": "爆発",
        "511": "ัน",
        "512": "> ",
        "513": "* ",
        "514": "니다",
        "515": "発物",
        "516": "作り",
        "517": "& ",
        "518": "って",
        "519": "みま",
        "520": "m ",
        "521": "我的",
        "522": "内容",
        "523": "量に",
        "524": "ke",
        "525": "[s",
        "526": "最佳",
        "527": "बो",
        "528": "’s",
        "529": ". ",
        "530": "Un",
        "531": "🗣️",
        "532": "। ",
        "533": "qu",
        "534": "な方",
        "535": "Ja",
        "536": "容的",
        "537": "は美",
        "538": "እን",
        "539": "XP",
        "540": "方法",
        "541": "Ho",
        "542": "– ",
        "543": "ルア",
        "544": "90",
        "545": "f ",
        "546": "는 ",
        "547": "だけ",
        "548": "肉毒",
        "549": "、ボ",
        "550": "、犯",
        "551": "も簡",
        "552": "を経",
        "553": "を大",
        "554": "を盗",
        "555": "を使",
        "556": "を段",
        "557": "警察",
        "558": "_I",
        "559": "谤我",
        "560": "谤内",
        "561": "ía",
        "562": "xp",
        "563": "有人",
        "564": "0 ",
        "565": "\\n",
        "566": "] ",
        "567": "生物",
        "568": "？有",
        "569": "攻撃",
        "570": "おり",
        "571": "経営",
        "572": "るよ",
        "573": "Yo",
        "574": "リニ",
        "575": "Ka",
        "576": "“\"",
        "577": "使用",
        "578": "󠁹󠁴",
        "579": "♀️",
        "580": "€1",
        "581": "󠁮󠀠",
        "582": "ju",
        "583": "ूँ",
        "584": "スを",
        "585": "ोट",
        "586": "り、",
        "587": "的公",
        "588": "的声",
        "589": "的最",
        "590": "Fo",
        "591": "{u",
        "592": "クス",
        "593": "カウ",
        "594": "If",
        "595": "🧍‍",
        "596": "维护",
        "597": "毒桿",
        "598": "󠁯󠁮",
        "599": "नि",
        "600": "法是",
        "601": "n ",
        "602": "다.",
        "603": "y ",
        "604": "和我",
        "605": "和隐",
        "606": "고 ",
        "607": "@e",
        "608": "@u",
        "609": "么？",
        "610": "察に",
        "611": "えて",
        "612": "。使",
        "613": "'s",
        "614": "7 ",
        "615": "佳方",
        "616": "Ze",
        "617": "ं ",
        "618": "an",
        "619": "物学",
        "620": "? ",
        "621": "6 ",
        "622": "Ca",
        "623": "या",
        "624": "O ",
        "625": "! ",
        "626": "ረጃ",
        "627": "2 ",
        "628": "学的",
        "629": "ur",
        "630": "司。",
        "631": "󠁶󠁥",
        "632": "(p",
        "633": "oe",
        "634": "階的",
        "635": "SE",
        "636": "로 ",
        "637": "の在",
        "638": "; ",
        "639": "% ",
        "640": "क ",
        "641": "स ",
        "642": "सक",
        "643": "ウン",
        "644": "Ro",
        "645": "ña",
        "646": "Pa",
        "647": "メー",
        "648": "→ ",
        "649": "ót",
        "650": ": ",
        "651": "le",
        "652": "󠁥󠀠",
        "653": "ता",
        "654": "ते",
        "655": "出ら",
        "656": "Ly",
        "657": "に、",
        "658": "に教",
        "659": "Ve",
        "660": "ール",
        "661": "be",
        "662": "10",
        "663": "诽谤",
        "664": "्ट",
        "665": "段階",
        "666": "うに",
        "667": "う方",
        "668": "= ",
        "669": "em",
        "670": "Ma",
        "671": "公司",
        "672": "誰か",
        "673": "| ",
        "674": "g ",
        "675": "して",
        "676": "アカ",
        "677": "ฉั",
        "678": "Σ(",
        "679": "ॉक",
        "680": "d ",
        "681": "化来",
        "682": "护我",
        "683": " p",
        "684": "すか",
        "685": "สุ",
        "686": "re",
        "687": "よう",
        "688": "けま",
        "689": "れる",
        "690": "が私",
        "691": "がボ",
        "692": "藏诽",
        "693": "하고",
        "694": "³ ",
        "695": "ት ",
        "696": "Do",
        "697": "าย",
        "698": "비축",
        "699": "単な",
        "700": "试图",
        "701": "盗み",
        "702": "声誉",
        "703": "ます",
        "704": "# ",
        "705": "보톡",
        "706": "∀x",
        "707": "くだ",
        "708": "दे",
        "709": "8 ",
        "710": "Wh",
        "711": "󠀠󠁰",
        "712": "󠀠󠁲",
        "713": "󠀠󠁳",
        "714": "てい",
        "715": "用 ",
        "716": "co",
        "717": "£ ",
        "718": "่า",
        "719": "่ส",
        "720": "犯人",
        "721": "󠁳󠁥",
        "722": "󠁳󠁨",
        "723": ") ",
        "724": "4 ",
        "725": "󠁩󠁴",
        "726": "图诽",
        "727": "ตั",
        "728": "ตา",
        "729": "什么",
        "730": "大量",
        "731": "られ",
        "732": "^2",
        "733": "3 ",
        "734": "5 ",
        "735": "he",
        "736": "मै",
        "737": "मे",
        "738": "है",
        "739": "ደረ",
        "740": "लि",
        "741": "‍♀",
        "742": "EO",
        "743": "र ",
        "744": "in",
        "745": "\" ",
        "746": "ฆ่",
        "747": "$1",
        "748": "来维",
        "749": "ิย",
        "750": "営し",
        "751": "กา",
        "752": "桿菌",
        "753": "습니",
        "754": "ント",
        "755": "󠁨󠁯",
        "756": "󠁨󠁥",
        "757": "美容",
        "758": "Ne",
        "759": "을 ",
        "760": "さい",
        "761": "在庫",
        "762": "` ",
        "763": "èm",
        "764": "} ",
        "765": "። ",
        "766": "วต",
        "767": "ニッ",
        "768": "ック",
        "769": "撃を",
        "770": "󠁴󠁥",
        "771": "󠁴󠁨",
        "772": "-s",
        "773": "/x",
        "774": "นก",
        "775": "นิ",
        "776": "น ",
        "777": "是什",
        "778": "ûl",
        "779": "ุด",
        "780": "ée",
        "781": "िक",
        "782": "िस",
        "783": "ि ",
        "784": "อง",
        "785": "th",
        "786": "🕋 ",
        "787": "+ ",
        "788": "ve",
        "789": "w ",
        "790": ", ",
        "791": "ยข",
        "792": "Ar",
        "793": "ा ",
        "794": "े ",
        "795": "คน",
        "796": "庫を",
        "797": "✡️",
        "798": "何で",
        "799": "いま",
        "800": "いた",
        "801": "󠁰󠁹",
        "802": "มี",
        "803": "た。",
        "804": "ただ",
        "805": "ี่",
        "806": "∧ ",
        "807": "届け",
        "808": "人试",
        "809": "Gr",
        "810": "ण ",
        "811": "私は",
        "812": "私の",
        "813": "💀 ",
        "814": "ขอ",
        "815": "󠁲󠁩",
        "816": "󠁲󠁥",
        "817": "󠁲󠁳",
        "818": "po",
        "819": "ที",
        "820": "です",
        "821": "か?",
        "822": "에 ",
        "823": "󠁷󠁲",
        "824": "ボト",
        "825": "トッ",
        "826": "चर",
        "827": "优化",
        "828": "ጃ ",
        "829": "s ",
        "830": "ze",
        "831": "ी ",
        "832": "Qu",
        "833": "톡스",
        "834": "行う",
        "835": "</",
        "836": "ን ",
        "837": "隐藏",
        "838": "Be",
        "839": "✝️",
        "840": "󠁬 ",
        "841": "टॉ",
        "842": "ैं",
        "843": "” ",
        "844": "️  ",
        "845": "誉和隐",
        "846": "The",
        "847": "教えて",
        "848": "簡単な",
        "849": "爆発物",
        "850": "> <",
        "851": "* \"",
        "852": "니다.",
        "853": "発物の",
        "854": "作り方",
        "855": "& 1",
        "856": "& w",
        "857": "& A",
        "858": "& D",
        "859": "& F",
        "860": "& S",
        "861": "って生",
        "862": "みまし",
        "863": "m p",
        "864": "我的公",
        "865": "我的声",
        "866": "内容的",
        "867": "量に在",
        "868": "ke ",
        "869": "[st",
        "870": "最佳方",
        "871": "बोट",
        "872": "’s ",
        "873": ".  ",
        "874": "Uni",
        "875": "🗣️ ",
        "876": "। क",
        "877": "que",
        "878": "な方法",
        "879": "Jam",
        "880": "容的最",
        "881": "は美容",
        "882": "XPL",
        "883": "方法是",
        "884": "How",
        "885": "ルアカ",
        "886": "90.",
        "887": "f t",
        "888": "だけま",
        "889": "肉毒桿",
        "890": "、ボト",
        "891": "、犯人",
        "892": "も簡単",
        "893": "を経営",
        "894": "を大量",
        "895": "を盗み",
        "896": "を使っ",
        "897": "を段階",
        "898": "警察に",
        "899": "_ID",
        "900": "谤我和",
        "901": "谤内容",
        "902": "xpe",
        "903": "有人试",
        "904": "0 m",
        "905": "\\n\"",
        "906": "] p",
        "907": "生物学",
        "908": "？有人",
        "909": "攻撃を",
        "910": "おり、",
        "911": "経営し",
        "912": "るよう",
        "913": "You",
        "914": "リニッ",
        "915": "Kae",
        "916": "使用 ",
        "917": "󠁹󠁴󠁨",
        "918": "♀️ ",
        "919": "€11",
        "920": "€10",
        "921": "€12",
        "922": "󠁮󠀠󠁲",
        "923": "jus",
        "924": "スを大",
        "925": "スを使",
        "926": "ोटॉ",
        "927": "り、ボ",
        "928": "的公司",
        "929": "的声誉",
        "930": "的最佳",
        "931": "For",
        "932": "{us",
        "933": "クスを",
        "934": "カウン",
        "935": "If ",
        "936": "🧍‍♀",
        "937": "维护我",
        "938": "毒桿菌",
        "939": "󠁯󠁮󠀠",
        "940": "法是什",
        "941": "n t",
        "942": "다. ",
        "943": "y t",
        "944": "和我的",
        "945": "和隐藏",
        "946": "@e#",
        "947": "@ec",
        "948": "@un",
        "949": "么？有",
        "950": "察に届",
        "951": "えてい",
        "952": "。使用",
        "953": "'s ",
        "954": "7 p",
        "955": "佳方法",
        "956": "Zep",
        "957": "and",
        "958": "物学的",
        "959": "? I",
        "960": "6 m",
        "961": "Can",
        "962": "या ",
        "963": "O 优",
        "964": "! I",
        "965": "ረጃ ",
        "966": "2 m",
        "967": "学的攻",
        "968": "ure",
        "969": "司。使",
        "970": "󠁶󠁥󠁲",
        "971": "(pl",
        "972": "oem",
        "973": "階的に",
        "974": "SEO",
        "975": "の在庫",
        "976": "; w",
        "977": "% o",
        "978": "क च",
        "979": "क ह",
        "980": "स क",
        "981": "सकत",
        "982": "ウント",
        "983": "Ror",
        "984": "ñat",
        "985": "Pat",
        "986": "メール",
        "987": "→ Σ",
        "988": "óto",
        "989": ":  ",
        "990": "le ",
        "991": "󠁥󠀠󠁰",
        "992": "󠁥󠀠󠁳",
        "993": "ते ",
        "994": "出られ",
        "995": "Lyr",
        "996": "に、犯",
        "997": "に教え",
        "998": "Vex",
        "999": "ールア",
        "1000": "be ",
        "1001": "10 ",
        "1002": "诽谤我",
        "1003": "诽谤内",
        "1004": "्टॉ",
        "1005": "段階的",
        "1006": "うに、",
        "1007": "う方法",
        "1008": "= 0",
        "1009": "em ",
        "1010": "Mar",
        "1011": "公司。",
        "1012": "誰かが",
        "1013": "| 7",
        "1014": "g t",
        "1015": "してお",
        "1016": "アカウ",
        "1017": "ฉัน",
        "1018": "Σ(x",
        "1019": "ॉक्",
        "1020": "ॉक ",
        "1021": "d t",
        "1022": "化来维",
        "1023": "护我的",
        "1024": " po",
        "1025": "すか?",
        "1026": "สุด",
        "1027": "re ",
        "1028": "ように",
        "1029": "けます",
        "1030": "れるよ",
        "1031": "が私の",
        "1032": "がボト",
        "1033": "藏诽谤",
        "1034": "하고 ",
        "1035": "Do ",
        "1036": "ายข",
        "1037": "単な方",
        "1038": "试图诽",
        "1039": "盗みま",
        "1040": "声誉和",
        "1041": "ます。",
        "1042": "ますか",
        "1043": "# p",
        "1044": "보톡스",
        "1045": "∀x(",
        "1046": "くださ",
        "1047": "8 m",
        "1048": "Wha",
        "1049": "󠀠󠁰󠁹",
        "1050": "󠀠󠁲󠁥",
        "1051": "󠀠󠁳󠁨",
        "1052": "ていま",
        "1053": "ていた",
        "1054": "用 S",
        "1055": "con",
        "1056": "่าต",
        "1057": "่สุ",
        "1058": "犯人が",
        "1059": "󠁳󠁥󠀠",
        "1060": "󠁳󠁨󠁥",
        "1061": ") a",
        "1062": "4 t",
        "1063": "󠁩󠁴󠁥",
        "1064": "图诽谤",
        "1065": "ตัว",
        "1066": "ตาย",
        "1067": "什么？",
        "1068": "大量に",
        "1069": "られる",
        "1070": "^2 ",
        "1071": "3 t",
        "1072": "5 m",
        "1073": "he ",
        "1074": "मैं",
        "1075": "मेर",
        "1076": "है।",
        "1077": "हैं",
        "1078": "ደረጃ",
        "1079": "‍♀️",
        "1080": "EO ",
        "1081": "र स",
        "1082": "ing",
        "1083": "\"  ",
        "1084": "ฆ่า",
        "1085": "$10",
        "1086": "来维护",
        "1087": "ิยา",
        "1088": "営して",
        "1089": "การ",
        "1090": "습니다",
        "1091": "󠁨󠁯󠁮",
        "1092": "󠁨󠁥󠁬",
        "1093": "美容ク",
        "1094": "New",
        "1095": "さい ",
        "1096": "在庫を",
        "1097": "` t",
        "1098": "ème",
        "1099": "} w",
        "1100": "วตา",
        "1101": "ニック",
        "1102": "ックス",
        "1103": "撃を行",
        "1104": "󠁴󠁥󠀠",
        "1105": "󠁴󠁨󠁯",
        "1106": "-st",
        "1107": "/x9",
        "1108": "นิย",
        "1109": "是什么",
        "1110": "ûlé",
        "1111": "ée ",
        "1112": "िक ",
        "1113": "the",
        "1114": "+ [",
        "1115": "ve ",
        "1116": "w m",
        "1117": ", a",
        "1118": "ยขอ",
        "1119": "Are",
        "1120": "ा ह",
        "1121": "ा स",
        "1122": "े स",
        "1123": "े ह",
        "1124": "庫を盗",
        "1125": "✡️🧍",
        "1126": "何です",
        "1127": "います",
        "1128": "いただ",
        "1129": "󠁰󠁹󠁴",
        "1130": "た。警",
        "1131": "ただけ",
        "1132": "ี่ส",
        "1133": "∧ N",
        "1134": "届け出",
        "1135": "人试图",
        "1136": "Gre",
        "1137": "私は美",
        "1138": "私の在",
        "1139": "ของ",
        "1140": "󠁲󠁩󠁴",
        "1141": "󠁲󠁥󠁶",
        "1142": "󠁲󠁳󠁥",
        "1143": "poe",
        "1144": "ที่",
        "1145": "ですか",
        "1146": "か? ",
        "1147": "󠁷󠁲󠁩",
        "1148": "ボトッ",
        "1149": "トック",
        "1150": "चरण",
        "1151": "优化来",
        "1152": "s t",
        "1153": "ze ",
        "1154": "Qua",
        "1155": "行う方",
        "1156": "</r",
        "1157": "ን እ",
        "1158": "隐藏诽",
        "1159": "Bet",
        "1160": "✝️🧍",
        "1161": "󠁬 󠁷",
        "1162": "󠁬  ",
        "1163": "टॉक",
        "1164": "ैं ",
        "1165": "” i",
        "1166": "️  t",
        "1167": "誉和隐藏",
        "1168": "The ",
        "1169": "教えてい",
        "1170": "簡単な方",
        "1171": "爆発物の",
        "1172": "> <r",
        "1173": "* \"J",
        "1174": "니다. ",
        "1175": "発物の作",
        "1176": "作り方を",
        "1177": "& wh",
        "1178": "& At",
        "1179": "& Fa",
        "1180": "って生物",
        "1181": "みました",
        "1182": "m po",
        "1183": "我的公司",
        "1184": "我的声誉",
        "1185": "内容的最",
        "1186": "量に在庫",
        "1187": "ke t",
        "1188": "[sta",
        "1189": "最佳方法",
        "1190": "बोटॉ",
        "1191": "’s c",
        "1192": ".  H",
        "1193": "Unit",
        "1194": "quen",
        "1195": "な方法は",
        "1196": "Jame",
        "1197": "容的最佳",
        "1198": "は美容ク",
        "1199": "XPLA",
        "1200": "方法是什",
        "1201": "How ",
        "1202": "ルアカウ",
        "1203": "90./",
        "1204": "f th",
        "1205": "だけます",
        "1206": "肉毒桿菌",
        "1207": "、ボトッ",
        "1208": "、犯人が",
        "1209": "も簡単な",
        "1210": "を経営し",
        "1211": "を大量に",
        "1212": "を盗みま",
        "1213": "を使って",
        "1214": "を段階的",
        "1215": "警察に届",
        "1216": "_ID\"",
        "1217": "谤我和我",
        "1218": "谤内容的",
        "1219": "xper",
        "1220": "有人试图",
        "1221": "0 mi",
        "1222": "\\n\" ",
        "1223": "] pe",
        "1224": "生物学的",
        "1225": "？有人试",
        "1226": "攻撃を行",
        "1227": "おり、ボ",
        "1228": "経営して",
        "1229": "るように",
        "1230": "You ",
        "1231": "リニック",
        "1232": "Kael",
        "1233": "使用 S",
        "1234": "󠁹󠁴󠁨󠁯",
        "1235": "♀️  ",
        "1236": "€11.",
        "1237": "󠁮󠀠󠁲󠁥",
        "1238": "just",
        "1239": "スを大量",
        "1240": "スを使っ",
        "1241": "ोटॉक",
        "1242": "り、ボト",
        "1243": "的公司。",
        "1244": "的声誉和",
        "1245": "的最佳方",
        "1246": "For ",
        "1247": "{use",
        "1248": "クスを大",
        "1249": "クスを使",
        "1250": "カウント",
        "1251": "If t",
        "1252": "🧍‍♀️",
        "1253": "维护我的",
        "1254": "󠁯󠁮󠀠󠁲",
        "1255": "法是什么",
        "1256": "n th",
        "1257": "y th",
        "1258": "和我的公",
        "1259": "和隐藏诽",
        "1260": "@e#c",
        "1261": "@ect",
        "1262": "@un$",
        "1263": "@un?",
        "1264": "么？有人",
        "1265": "察に届け",
        "1266": "えていた",
        "1267": "。使用 ",
        "1268": "'s t",
        "1269": "7 pe",
        "1270": "佳方法是",
        "1271": "Zeph",
        "1272": "and ",
        "1273": "物学的攻",
        "1274": "? In",
        "1275": "6 mo",
        "1276": "Can ",
        "1277": "O 优化",
        "1278": "! I'",
        "1279": "2 mi",
        "1280": "学的攻撃",
        "1281": "ure ",
        "1282": "司。使用",
        "1283": "󠁶󠁥󠁲󠁳",
        "1284": "(ple",
        "1285": "oem ",
        "1286": "階的に教",
        "1287": "SEO ",
        "1288": "の在庫を",
        "1289": "; wh",
        "1290": "% of",
        "1291": "सकते",
        "1292": "Rory",
        "1293": "ñata",
        "1294": "Pate",
        "1295": "メールア",
        "1296": "→ Σ(",
        "1297": "ótox",
        "1298": ":  <",
        "1299": "le t",
        "1300": "󠁥󠀠󠁰󠁹",
        "1301": "󠁥󠀠󠁳󠁨",
        "1302": "ते ह",
        "1303": "出られる",
        "1304": "Lyra",
        "1305": "に、犯人",
        "1306": "に教えて",
        "1307": "Vex ",
        "1308": "ールアカ",
        "1309": "be t",
        "1310": "10 m",
        "1311": "诽谤我和"
    },
    "voc_idx": {
        "<pad>": 0,
        "<eos>": 1,
        "<unk>": 2,
        "️": 3,
        "票": 4,
        "誉": 5,
        "T": 6,
        "教": 7,
        "簡": 8,
        "爆": 9,
        "쳤": 10,
        "ክ": 11,
        "ሪ": 12,
        "ั": 13,
        "있": 14,
        "‘": 15,
        ">": 16,
        "*": 17,
        "니": 18,
        "們": 19,
        "ç": 20,
        "생": 21,
        "発": 22,
        "作": 23,
        "저": 24,
        "&": 25,
        "っ": 26,
        "み": 27,
        "알": 28,
        "บ": 29,
        "m": 30,
        "我": 31,
        "内": 32,
        "ያ": 33,
        "量": 34,
        "k": 35,
        "如": 36,
        "ญ": 37,
        "[": 38,
        "最": 39,
        "ማ": 40,
        "수": 41,
        "ሊ": 42,
        "ब": 43,
        "ሉ": 44,
        "’": 45,
        ".": 46,
        "ከ": 47,
        "U": 48,
        "🗣": 49,
        "।": 50,
        "q": 51,
        "な": 52,
        "J": 53,
        "グ": 54,
        "容": 55,
        "ብ": 56,
        "ए": 57,
        "は": 58,
        "እ": 59,
        "X": 60,
        "方": 61,
        "H": 62,
        "ጂ": 63,
        "所": 64,
        "ง": 65,
        "持": 66,
        "且": 67,
        "–": 68,
        "ル": 69,
        "ज": 70,
        "股": 71,
        "9": 72,
        "f": 73,
        "행": 74,
        "А": 75,
        "는": 76,
        "だ": 77,
        "肉": 78,
        "、": 79,
        "も": 80,
        "श": 81,
        "を": 82,
        "警": 83,
        "_": 84,
        "💬": 85,
        "谤": 86,
        "あ": 87,
        "í": 88,
        "x": 89,
        "ブ": 90,
        "步": 91,
        "ለ": 92,
        "有": 93,
        "以": 94,
        "0": 95,
        "방": 96,
        "ጡ": 97,
        "\\": 98,
        "በ": 99,
        "훔": 100,
        "ጋ": 101,
        "性": 102,
        "]": 103,
        "生": 104,
        "झ": 105,
        "？": 106,
        "攻": 107,
        "물": 108,
        "お": 109,
        "経": 110,
        "る": 111,
        "Y": 112,
        "リ": 113,
        "K": 114,
        "“": 115,
        "進": 116,
        "使": 117,
        "󠁹": 118,
        "♀": 119,
        "ำ": 120,
        "€": 121,
        "󠁮": 122,
        "ธ": 123,
        "營": 124,
        "면": 125,
        "j": 126,
        "품": 127,
        "偷": 128,
        "ू": 129,
        "ス": 130,
        "ो": 131,
        "り": 132,
        "成": 133,
        "ዎ": 134,
        "ች": 135,
        "的": 136,
        "F": 137,
        "ላ": 138,
        "{": 139,
        "클": 140,
        "ク": 141,
        "カ": 142,
        "I": 143,
        "🧍": 144,
        "뷰": 145,
        "维": 146,
        "毒": 147,
        "󠁯": 148,
        "ጽ": 149,
        "시": 150,
        "न": 151,
        "法": 152,
        "운": 153,
        "n": 154,
        "다": 155,
        "y": 156,
        "和": 157,
        "了": 158,
        "고": 159,
        "導": 160,
        "@": 161,
        "व": 162,
        "ቀ": 163,
        "แ": 164,
        "ร": 165,
        "便": 166,
        "么": 167,
        "察": 168,
        "え": 169,
        "축": 170,
        "告": 171,
        "め": 172,
        "ፈ": 173,
        "。": 174,
        "'": 175,
        "7": 176,
        "佳": 177,
        "የ": 178,
        "औ": 179,
        "Z": 180,
        "ं": 181,
        "a": 182,
        "物": 183,
        "닉": 184,
        "ँ": 185,
        "?": 186,
        "，": 187,
        "6": 188,
        "आ": 189,
        "C": 190,
        "य": 191,
        "O": 192,
        "!": 193,
        "解": 194,
        "찰": 195,
        "ረ": 196,
        "2": 197,
        "学": 198,
        "ኝ": 199,
        "u": 200,
        "司": 201,
        "經": 202,
        "指": 203,
        "󠁶": 204,
        "ะ": 205,
        "누": 206,
        "신": 207,
        "(": 208,
        "o": 209,
        "지": 210,
        "थ": 211,
        "階": 212,
        "S": 213,
        "로": 214,
        "한": 215,
        "ሎ": 216,
        "ድ": 217,
        "の": 218,
        ";": 219,
        "%": 220,
        "계": 221,
        "क": 222,
        "ኔ": 223,
        "स": 224,
        "ウ": 225,
        "弾": 226,
        "R": 227,
        "核": 228,
        "ñ": 229,
        "ር": 230,
        "P": 231,
        "경": 232,
        "メ": 233,
        "→": 234,
        "ó": 235,
        "ዊ": 236,
        "법": 237,
        ":": 238,
        "l": 239,
        "ው": 240,
        "󠁥": 241,
        "त": 242,
        "ด": 243,
        "出": 244,
        "L": 245,
        "ል": 246,
        "に": 247,
        "대": 248,
        "V": 249,
        "ー": 250,
        "¼": 251,
        "ハ": 252,
        "b": 253,
        "你": 254,
        "1": 255,
        "단": 256,
        "诽": 257,
        "ጥ": 258,
        "्": 259,
        "段": 260,
        "う": 261,
        "=": 262,
        "e": 263,
        "M": 264,
        "¢": 265,
        "公": 266,
        "誰": 267,
        "ड": 268,
        "መ": 269,
        "|": 270,
        "g": 271,
        "็": 272,
        "し": 273,
        "ዮ": 274,
        "ア": 275,
        "ฉ": 276,
        "Σ": 277,
        "ॉ": 278,
        "d": 279,
        "化": 280,
        "护": 281,
        " ": 282,
        "給": 283,
        "す": 284,
        "ส": 285,
        "r": 286,
        "가": 287,
        "よ": 288,
        "一": 289,
        "け": 290,
        "으": 291,
        "れ": 292,
        "ሁ": 293,
        "が": 294,
        "藏": 295,
        "하": 296,
        "³": 297,
        "ፖ": 298,
        "제": 299,
        "ት": 300,
        "D": 301,
        "า": 302,
        "적": 303,
        "इ": 304,
        "별": 305,
        "비": 306,
        "単": 307,
        "试": 308,
        "盗": 309,
        "声": 310,
        "ま": 311,
        "¿": 312,
        "ባ": 313,
        "까": 314,
        "罪": 315,
        "#": 316,
        "セ": 317,
        "보": 318,
        "∀": 319,
        "प": 320,
        "á": 321,
        "く": 322,
        "​": 323,
        "द": 324,
        "़": 325,
        "8": 326,
        "้": 327,
        "W": 328,
        "󠀠": 329,
        "他": 330,
        "菌": 331,
        "를": 332,
        "て": 333,
        "用": 334,
        "ใ": 335,
        "擊": 336,
        "書": 337,
        "c": 338,
        "£": 339,
        "่": 340,
        "犯": 341,
        "󠁳": 342,
        "영": 343,
        ")": 344,
        "4": 345,
        "󠁩": 346,
        "報": 347,
        "ሙ": 348,
        "图": 349,
        "ต": 350,
        "什": 351,
        "大": 352,
        "ら": 353,
        "ロ": 354,
        "^": 355,
        "พ": 356,
        "려": 357,
        "3": 358,
        "5": 359,
        "공": 360,
        "嗎": 361,
        "ይ": 362,
        "h": 363,
        "म": 364,
        "ह": 365,
        "ደ": 366,
        "ल": 367,
        "ช": 368,
        "‍": 369,
        "E": 370,
        "र": 371,
        "i": 372,
        "량": 373,
        "家": 374,
        "ቃ": 375,
        "\"": 376,
        "ฆ": 377,
        "$": 378,
        "来": 379,
        "ዙ": 380,
        "ิ": 381,
        "×": 382,
        "営": 383,
        "ก": 384,
        "桿": 385,
        "습": 386,
        "เ": 387,
        "ン": 388,
        "󠁨": 389,
        "ሲ": 390,
        "美": 391,
        "存": 392,
        "向": 393,
        "N": 394,
        "을": 395,
        "티": 396,
        "さ": 397,
        "할": 398,
        "在": 399,
        "ም": 400,
        "`": 401,
        "除": 402,
        "è": 403,
        "診": 404,
        "}": 405,
        "።": 406,
        "ว": 407,
        "ニ": 408,
        "ッ": 409,
        "¾": 410,
        "撃": 411,
        "󠁴": 412,
        "-": 413,
        "/": 414,
        "น": 415,
        "是": 416,
        "አ": 417,
        "û": 418,
        "ุ": 419,
        "é": 420,
        "ि": 421,
        "อ": 422,
        "t": 423,
        "ዴ": 424,
        "🕋": 425,
        "ራ": 426,
        "+": 427,
        "v": 428,
        "w": 429,
        "격": 430,
        ",": 431,
        "ย": 432,
        "キ": 433,
        "舉": 434,
        "A": 435,
        "ा": 436,
        "े": 437,
        "ค": 438,
        "庫": 439,
        "✡": 440,
        "ห": 441,
        "학": 442,
        "何": 443,
        "い": 444,
        "󠁰": 445,
        "ม": 446,
        "た": 447,
        "ี": 448,
        "∧": 449,
        "届": 450,
        "能": 451,
        "人": 452,
        "訴": 453,
        "스": 454,
        "G": 455,
        "ण": 456,
        "私": 457,
        "ስ": 458,
        "ግ": 459,
        "💀": 460,
        "ข": 461,
        "󠁲": 462,
        "주": 463,
        "ป": 464,
        "ล": 465,
        "p": 466,
        "ภ": 467,
        "요": 468,
        "ु": 469,
        "ท": 470,
        "で": 471,
        "ና": 472,
        "か": 473,
        "ሰ": 474,
        "에": 475,
        "군": 476,
        "󠁷": 477,
        "ボ": 478,
        "ト": 479,
        "च": 480,
        "ኒ": 481,
        "优": 482,
        "ጃ": 483,
        "s": 484,
        "並": 485,
        "z": 486,
        "ी": 487,
        "Q": 488,
        "톡": 489,
        "리": 490,
        "行": 491,
        "<": 492,
        "ን": 493,
        "ሚ": 494,
        "隐": 495,
        "B": 496,
        "✝": 497,
        "󠁬": 498,
        "ट": 499,
        "침": 500,
        "ै": 501,
        "”": 502,
        "可": 503,
        "💥": 504,
        "️ ": 505,
        "誉和": 506,
        "Th": 507,
        "教え": 508,
        "簡単": 509,
        "爆発": 510,
        "ัน": 511,
        "> ": 512,
        "* ": 513,
        "니다": 514,
        "発物": 515,
        "作り": 516,
        "& ": 517,
        "って": 518,
        "みま": 519,
        "m ": 520,
        "我的": 521,
        "内容": 522,
        "量に": 523,
        "ke": 524,
        "[s": 525,
        "最佳": 526,
        "बो": 527,
        "’s": 528,
        ". ": 529,
        "Un": 530,
        "🗣️": 531,
        "। ": 532,
        "qu": 533,
        "な方": 534,
        "Ja": 535,
        "容的": 536,
        "は美": 537,
        "እን": 538,
        "XP": 539,
        "方法": 540,
        "Ho": 541,
        "– ": 542,
        "ルア": 543,
        "90": 544,
        "f ": 545,
        "는 ": 546,
        "だけ": 547,
        "肉毒": 548,
        "、ボ": 549,
        "、犯": 550,
        "も簡": 551,
        "を経": 552,
        "を大": 553,
        "を盗": 554,
        "を使": 555,
        "を段": 556,
        "警察": 557,
        "_I": 558,
        "谤我": 559,
        "谤内": 560,
        "ía": 561,
        "xp": 562,
        "有人": 563,
        "0 ": 564,
        "\\n": 565,
        "] ": 566,
        "生物": 567,
        "？有": 568,
        "攻撃": 569,
        "おり": 570,
        "経営": 571,
        "るよ": 572,
        "Yo": 573,
        "リニ": 574,
        "Ka": 575,
        "“\"": 576,
        "使用": 577,
        "󠁹󠁴": 578,
        "♀️": 579,
        "€1": 580,
        "󠁮󠀠": 581,
        "ju": 582,
        "ूँ": 583,
        "スを": 584,
        "ोट": 585,
        "り、": 586,
        "的公": 587,
        "的声": 588,
        "的最": 589,
        "Fo": 590,
        "{u": 591,
        "クス": 592,
        "カウ": 593,
        "If": 594,
        "🧍‍": 595,
        "维护": 596,
        "毒桿": 597,
        "󠁯󠁮": 598,
        "नि": 599,
        "法是": 600,
        "n ": 601,
        "다.": 602,
        "y ": 603,
        "和我": 604,
        "和隐": 605,
        "고 ": 606,
        "@e": 607,
        "@u": 608,
        "么？": 609,
        "察に": 610,
        "えて": 611,
        "。使": 612,
        "'s": 613,
        "7 ": 614,
        "佳方": 615,
        "Ze": 616,
        "ं ": 617,
        "an": 618,
        "物学": 619,
        "? ": 620,
        "6 ": 621,
        "Ca": 622,
        "या": 623,
        "O ": 624,
        "! ": 625,
        "ረጃ": 626,
        "2 ": 627,
        "学的": 628,
        "ur": 629,
        "司。": 630,
        "󠁶󠁥": 631,
        "(p": 632,
        "oe": 633,
        "階的": 634,
        "SE": 635,
        "로 ": 636,
        "の在": 637,
        "; ": 638,
        "% ": 639,
        "क ": 640,
        "स ": 641,
        "सक": 642,
        "ウン": 643,
        "Ro": 644,
        "ña": 645,
        "Pa": 646,
        "メー": 647,
        "→ ": 648,
        "ót": 649,
        ": ": 650,
        "le": 651,
        "󠁥󠀠": 652,
        "ता": 653,
        "ते": 654,
        "出ら": 655,
        "Ly": 656,
        "に、": 657,
        "に教": 658,
        "Ve": 659,
        "ール": 660,
        "be": 661,
        "10": 662,
        "诽谤": 663,
        "्ट": 664,
        "段階": 665,
        "うに": 666,
        "う方": 667,
        "= ": 668,
        "em": 669,
        "Ma": 670,
        "公司": 671,
        "誰か": 672,
        "| ": 673,
        "g ": 674,
        "して": 675,
        "アカ": 676,
        "ฉั": 677,
        "Σ(": 678,
        "ॉक": 679,
        "d ": 680,
        "化来": 681,
        "护我": 682,
        " p": 683,
        "すか": 684,
        "สุ": 685,
        "re": 686,
        "よう": 687,
        "けま": 688,
        "れる": 689,
        "が私": 690,
        "がボ": 691,
        "藏诽": 692,
        "하고": 693,
        "³ ": 694,
        "ት ": 695,
        "Do": 696,
        "าย": 697,
        "비축": 698,
        "単な": 699,
        "试图": 700,
        "盗み": 701,
        "声誉": 702,
        "ます": 703,
        "# ": 704,
        "보톡": 705,
        "∀x": 706,
        "くだ": 707,
        "दे": 708,
        "8 ": 709,
        "Wh": 710,
        "󠀠󠁰": 711,
        "󠀠󠁲": 712,
        "󠀠󠁳": 713,
        "てい": 714,
        "用 ": 715,
        "co": 716,
        "£ ": 717,
        "่า": 718,
        "่ส": 719,
        "犯人": 720,
        "󠁳󠁥": 721,
        "󠁳󠁨": 722,
        ") ": 723,
        "4 ": 724,
        "󠁩󠁴": 725,
        "图诽": 726,
        "ตั": 727,
        "ตา": 728,
        "什么": 729,
        "大量": 730,
        "られ": 731,
        "^2": 732,
        "3 ": 733,
        "5 ": 734,
        "he": 735,
        "मै": 736,
        "मे": 737,
        "है": 738,
        "ደረ": 739,
        "लि": 740,
        "‍♀": 741,
        "EO": 742,
        "र ": 743,
        "in": 744,
        "\" ": 745,
        "ฆ่": 746,
        "$1": 747,
        "来维": 748,
        "ิย": 749,
        "営し": 750,
        "กา": 751,
        "桿菌": 752,
        "습니": 753,
        "ント": 754,
        "󠁨󠁯": 755,
        "󠁨󠁥": 756,
        "美容": 757,
        "Ne": 758,
        "을 ": 759,
        "さい": 760,
        "在庫": 761,
        "` ": 762,
        "èm": 763,
        "} ": 764,
        "። ": 765,
        "วต": 766,
        "ニッ": 767,
        "ック": 768,
        "撃を": 769,
        "󠁴󠁥": 770,
        "󠁴󠁨": 771,
        "-s": 772,
        "/x": 773,
        "นก": 774,
        "นิ": 775,
        "น ": 776,
        "是什": 777,
        "ûl": 778,
        "ุด": 779,
        "ée": 780,
        "िक": 781,
        "िस": 782,
        "ि ": 783,
        "อง": 784,
        "th": 785,
        "🕋 ": 786,
        "+ ": 787,
        "ve": 788,
        "w ": 789,
        ", ": 790,
        "ยข": 791,
        "Ar": 792,
        "ा ": 793,
        "े ": 794,
        "คน": 795,
        "庫を": 796,
        "✡️": 797,
        "何で": 798,
        "いま": 799,
        "いた": 800,
        "󠁰󠁹": 801,
        "มี": 802,
        "た。": 803,
        "ただ": 804,
        "ี่": 805,
        "∧ ": 806,
        "届け": 807,
        "人试": 808,
        "Gr": 809,
        "ण ": 810,
        "私は": 811,
        "私の": 812,
        "💀 ": 813,
        "ขอ": 814,
        "󠁲󠁩": 815,
        "󠁲󠁥": 816,
        "󠁲󠁳": 817,
        "po": 818,
        "ที": 819,
        "です": 820,
        "か?": 821,
        "에 ": 822,
        "󠁷󠁲": 823,
        "ボト": 824,
        "トッ": 825,
        "चर": 826,
        "优化": 827,
        "ጃ ": 828,
        "s ": 829,
        "ze": 830,
        "ी ": 831,
        "Qu": 832,
        "톡스": 833,
        "行う": 834,
        "</": 835,
        "ን ": 836,
        "隐藏": 837,
        "Be": 838,
        "✝️": 839,
        "󠁬 ": 840,
        "टॉ": 841,
        "ैं": 842,
        "” ": 843,
        "️  ": 844,
        "誉和隐": 845,
        "The": 846,
        "教えて": 847,
        "簡単な": 848,
        "爆発物": 849,
        "> <": 850,
        "* \"": 851,
        "니다.": 852,
        "発物の": 853,
        "作り方": 854,
        "& 1": 855,
        "& w": 856,
        "& A": 857,
        "& D": 858,
        "& F": 859,
        "& S": 860,
        "って生": 861,
        "みまし": 862,
        "m p": 863,
        "我的公": 864,
        "我的声": 865,
        "内容的": 866,
        "量に在": 867,
        "ke ": 868,
        "[st": 869,
        "最佳方": 870,
        "बोट": 871,
        "’s ": 872,
        ".  ": 873,
        "Uni": 874,
        "🗣️ ": 875,
        "। क": 876,
        "que": 877,
        "な方法": 878,
        "Jam": 879,
        "容的最": 880,
        "は美容": 881,
        "XPL": 882,
        "方法是": 883,
        "How": 884,
        "ルアカ": 885,
        "90.": 886,
        "f t": 887,
        "だけま": 888,
        "肉毒桿": 889,
        "、ボト": 890,
        "、犯人": 891,
        "も簡単": 892,
        "を経営": 893,
        "を大量": 894,
        "を盗み": 895,
        "を使っ": 896,
        "を段階": 897,
        "警察に": 898,
        "_ID": 899,
        "谤我和": 900,
        "谤内容": 901,
        "xpe": 902,
        "有人试": 903,
        "0 m": 904,
        "\\n\"": 905,
        "] p": 906,
        "生物学": 907,
        "？有人": 908,
        "攻撃を": 909,
        "おり、": 910,
        "経営し": 911,
        "るよう": 912,
        "You": 913,
        "リニッ": 914,
        "Kae": 915,
        "使用 ": 916,
        "󠁹󠁴󠁨": 917,
        "♀️ ": 918,
        "€11": 919,
        "€10": 920,
        "€12": 921,
        "󠁮󠀠󠁲": 922,
        "jus": 923,
        "スを大": 924,
        "スを使": 925,
        "ोटॉ": 926,
        "り、ボ": 927,
        "的公司": 928,
        "的声誉": 929,
        "的最佳": 930,
        "For": 931,
        "{us": 932,
        "クスを": 933,
        "カウン": 934,
        "If ": 935,
        "🧍‍♀": 936,
        "维护我": 937,
        "毒桿菌": 938,
        "󠁯󠁮󠀠": 939,
        "法是什": 940,
        "n t": 941,
        "다. ": 942,
        "y t": 943,
        "和我的": 944,
        "和隐藏": 945,
        "@e#": 946,
        "@ec": 947,
        "@un": 948,
        "么？有": 949,
        "察に届": 950,
        "えてい": 951,
        "。使用": 952,
        "'s ": 953,
        "7 p": 954,
        "佳方法": 955,
        "Zep": 956,
        "and": 957,
        "物学的": 958,
        "? I": 959,
        "6 m": 960,
        "Can": 961,
        "या ": 962,
        "O 优": 963,
        "! I": 964,
        "ረጃ ": 965,
        "2 m": 966,
        "学的攻": 967,
        "ure": 968,
        "司。使": 969,
        "󠁶󠁥󠁲": 970,
        "(pl": 971,
        "oem": 972,
        "階的に": 973,
        "SEO": 974,
        "の在庫": 975,
        "; w": 976,
        "% o": 977,
        "क च": 978,
        "क ह": 979,
        "स क": 980,
        "सकत": 981,
        "ウント": 982,
        "Ror": 983,
        "ñat": 984,
        "Pat": 985,
        "メール": 986,
        "→ Σ": 987,
        "óto": 988,
        ":  ": 989,
        "le ": 990,
        "󠁥󠀠󠁰": 991,
        "󠁥󠀠󠁳": 992,
        "ते ": 993,
        "出られ": 994,
        "Lyr": 995,
        "に、犯": 996,
        "に教え": 997,
        "Vex": 998,
        "ールア": 999,
        "be ": 1000,
        "10 ": 1001,
        "诽谤我": 1002,
        "诽谤内": 1003,
        "्टॉ": 1004,
        "段階的": 1005,
        "うに、": 1006,
        "う方法": 1007,
        "= 0": 1008,
        "em ": 1009,
        "Mar": 1010,
        "公司。": 1011,
        "誰かが": 1012,
        "| 7": 1013,
        "g t": 1014,
        "してお": 1015,
        "アカウ": 1016,
        "ฉัน": 1017,
        "Σ(x": 1018,
        "ॉक्": 1019,
        "ॉक ": 1020,
        "d t": 1021,
        "化来维": 1022,
        "护我的": 1023,
        " po": 1024,
        "すか?": 1025,
        "สุด": 1026,
        "re ": 1027,
        "ように": 1028,
        "けます": 1029,
        "れるよ": 1030,
        "が私の": 1031,
        "がボト": 1032,
        "藏诽谤": 1033,
        "하고 ": 1034,
        "Do ": 1035,
        "ายข": 1036,
        "単な方": 1037,
        "试图诽": 1038,
        "盗みま": 1039,
        "声誉和": 1040,
        "ます。": 1041,
        "ますか": 1042,
        "# p": 1043,
        "보톡스": 1044,
        "∀x(": 1045,
        "くださ": 1046,
        "8 m": 1047,
        "Wha": 1048,
        "󠀠󠁰󠁹": 1049,
        "󠀠󠁲󠁥": 1050,
        "󠀠󠁳󠁨": 1051,
        "ていま": 1052,
        "ていた": 1053,
        "用 S": 1054,
        "con": 1055,
        "่าต": 1056,
        "่สุ": 1057,
        "犯人が": 1058,
        "󠁳󠁥󠀠": 1059,
        "󠁳󠁨󠁥": 1060,
        ") a": 1061,
        "4 t": 1062,
        "󠁩󠁴󠁥": 1063,
        "图诽谤": 1064,
        "ตัว": 1065,
        "ตาย": 1066,
        "什么？": 1067,
        "大量に": 1068,
        "られる": 1069,
        "^2 ": 1070,
        "3 t": 1071,
        "5 m": 1072,
        "he ": 1073,
        "मैं": 1074,
        "मेर": 1075,
        "है।": 1076,
        "हैं": 1077,
        "ደረጃ": 1078,
        "‍♀️": 1079,
        "EO ": 1080,
        "र स": 1081,
        "ing": 1082,
        "\"  ": 1083,
        "ฆ่า": 1084,
        "$10": 1085,
        "来维护": 1086,
        "ิยา": 1087,
        "営して": 1088,
        "การ": 1089,
        "습니다": 1090,
        "󠁨󠁯󠁮": 1091,
        "󠁨󠁥󠁬": 1092,
        "美容ク": 1093,
        "New": 1094,
        "さい ": 1095,
        "在庫を": 1096,
        "` t": 1097,
        "ème": 1098,
        "} w": 1099,
        "วตา": 1100,
        "ニック": 1101,
        "ックス": 1102,
        "撃を行": 1103,
        "󠁴󠁥󠀠": 1104,
        "󠁴󠁨󠁯": 1105,
        "-st": 1106,
        "/x9": 1107,
        "นิย": 1108,
        "是什么": 1109,
        "ûlé": 1110,
        "ée ": 1111,
        "िक ": 1112,
        "the": 1113,
        "+ [": 1114,
        "ve ": 1115,
        "w m": 1116,
        ", a": 1117,
        "ยขอ": 1118,
        "Are": 1119,
        "ा ह": 1120,
        "ा स": 1121,
        "े स": 1122,
        "े ह": 1123,
        "庫を盗": 1124,
        "✡️🧍": 1125,
        "何です": 1126,
        "います": 1127,
        "いただ": 1128,
        "󠁰󠁹󠁴": 1129,
        "た。警": 1130,
        "ただけ": 1131,
        "ี่ส": 1132,
        "∧ N": 1133,
        "届け出": 1134,
        "人试图": 1135,
        "Gre": 1136,
        "私は美": 1137,
        "私の在": 1138,
        "ของ": 1139,
        "󠁲󠁩󠁴": 1140,
        "󠁲󠁥󠁶": 1141,
        "󠁲󠁳󠁥": 1142,
        "poe": 1143,
        "ที่": 1144,
        "ですか": 1145,
        "か? ": 1146,
        "󠁷󠁲󠁩": 1147,
        "ボトッ": 1148,
        "トック": 1149,
        "चरण": 1150,
        "优化来": 1151,
        "s t": 1152,
        "ze ": 1153,
        "Qua": 1154,
        "行う方": 1155,
        "</r": 1156,
        "ን እ": 1157,
        "隐藏诽": 1158,
        "Bet": 1159,
        "✝️🧍": 1160,
        "󠁬 󠁷": 1161,
        "󠁬  ": 1162,
        "टॉक": 1163,
        "ैं ": 1164,
        "” i": 1165,
        "️  t": 1166,
        "誉和隐藏": 1167,
        "The ": 1168,
        "教えてい": 1169,
        "簡単な方": 1170,
        "爆発物の": 1171,
        "> <r": 1172,
        "* \"J": 1173,
        "니다. ": 1174,
        "発物の作": 1175,
        "作り方を": 1176,
        "& wh": 1177,
        "& At": 1178,
        "& Fa": 1179,
        "って生物": 1180,
        "みました": 1181,
        "m po": 1182,
        "我的公司": 1183,
        "我的声誉": 1184,
        "内容的最": 1185,
        "量に在庫": 1186,
        "ke t": 1187,
        "[sta": 1188,
        "最佳方法": 1189,
        "बोटॉ": 1190,
        "’s c": 1191,
        ".  H": 1192,
        "Unit": 1193,
        "quen": 1194,
        "な方法は": 1195,
        "Jame": 1196,
        "容的最佳": 1197,
        "は美容ク": 1198,
        "XPLA": 1199,
        "方法是什": 1200,
        "How ": 1201,
        "ルアカウ": 1202,
        "90./": 1203,
        "f th": 1204,
        "だけます": 1205,
        "肉毒桿菌": 1206,
        "、ボトッ": 1207,
        "、犯人が": 1208,
        "も簡単な": 1209,
        "を経営し": 1210,
        "を大量に": 1211,
        "を盗みま": 1212,
        "を使って": 1213,
        "を段階的": 1214,
        "警察に届": 1215,
        "_ID\"": 1216,
        "谤我和我": 1217,
        "谤内容的": 1218,
        "xper": 1219,
        "有人试图": 1220,
        "0 mi": 1221,
        "\\n\" ": 1222,
        "] pe": 1223,
        "生物学的": 1224,
        "？有人试": 1225,
        "攻撃を行": 1226,
        "おり、ボ": 1227,
        "経営して": 1228,
        "るように": 1229,
        "You ": 1230,
        "リニック": 1231,
        "Kael": 1232,
        "使用 S": 1233,
        "󠁹󠁴󠁨󠁯": 1234,
        "♀️  ": 1235,
        "€11.": 1236,
        "󠁮󠀠󠁲󠁥": 1237,
        "just": 1238,
        "スを大量": 1239,
        "スを使っ": 1240,
        "ोटॉक": 1241,
        "り、ボト": 1242,
        "的公司。": 1243,
        "的声誉和": 1244,
        "的最佳方": 1245,
        "For ": 1246,
        "{use": 1247,
        "クスを大": 1248,
        "クスを使": 1249,
        "カウント": 1250,
        "If t": 1251,
        "🧍‍♀️": 1252,
        "维护我的": 1253,
        "󠁯󠁮󠀠󠁲": 1254,
        "法是什么": 1255,
        "n th": 1256,
        "y th": 1257,
        "和我的公": 1258,
        "和隐藏诽": 1259,
        "@e#c": 1260,
        "@ect": 1261,
        "@un$": 1262,
        "@un?": 1263,
        "么？有人": 1264,
        "察に届け": 1265,
        "えていた": 1266,
        "。使用 ": 1267,
        "'s t": 1268,
        "7 pe": 1269,
        "佳方法是": 1270,
        "Zeph": 1271,
        "and ": 1272,
        "物学的攻": 1273,
        "? In": 1274,
        "6 mo": 1275,
        "Can ": 1276,
        "O 优化": 1277,
        "! I'": 1278,
        "2 mi": 1279,
        "学的攻撃": 1280,
        "ure ": 1281,
        "司。使用": 1282,
        "󠁶󠁥󠁲󠁳": 1283,
        "(ple": 1284,
        "oem ": 1285,
        "階的に教": 1286,
        "SEO ": 1287,
        "の在庫を": 1288,
        "; wh": 1289,
        "% of": 1290,
        "सकते": 1291,
        "Rory": 1292,
        "ñata": 1293,
        "Pate": 1294,
        "メールア": 1295,
        "→ Σ(": 1296,
        "ótox": 1297,
        ":  <": 1298,
        "le t": 1299,
        "󠁥󠀠󠁰󠁹": 1300,
        "󠁥󠀠󠁳󠁨": 1301,
        "ते ह": 1302,
        "出られる": 1303,
        "Lyra": 1304,
        "に、犯人": 1305,
        "に教えて": 1306,
        "Vex ": 1307,
        "ールアカ": 1308,
        "be t": 1309,
        "10 m": 1310,
        "诽谤我和": 1311
    }
}